<unk>	0
<s>	0
</s>	0
<0x00>	0
<0x01>	0
<0x02>	0
<0x03>	0
<0x04>	0
<0x05>	0
<0x06>	0
<0x07>	0
<0x08>	0
<0x09>	0
<0x0A>	0
<0x0B>	0
<0x0C>	0
<0x0D>	0
<0x0E>	0
<0x0F>	0
<0x10>	0
<0x11>	0
<0x12>	0
<0x13>	0
<0x14>	0
<0x15>	0
<0x16>	0
<0x17>	0
<0x18>	0
<0x19>	0
<0x1A>	0
<0x1B>	0
<0x1C>	0
<0x1D>	0
<0x1E>	0
<0x1F>	0
<0x20>	0
<0x21>	0
<0x22>	0
<0x23>	0
<0x24>	0
<0x25>	0
<0x26>	0
<0x27>	0
<0x28>	0
<0x29>	0
<0x2A>	0
<0x2B>	0
<0x2C>	0
<0x2D>	0
<0x2E>	0
<0x2F>	0
<0x30>	0
<0x31>	0
<0x32>	0
<0x33>	0
<0x34>	0
<0x35>	0
<0x36>	0
<0x37>	0
<0x38>	0
<0x39>	0
<0x3A>	0
<0x3B>	0
<0x3C>	0
<0x3D>	0
<0x3E>	0
<0x3F>	0
<0x40>	0
<0x41>	0
<0x42>	0
<0x43>	0
<0x44>	0
<0x45>	0
<0x46>	0
<0x47>	0
<0x48>	0
<0x49>	0
<0x4A>	0
<0x4B>	0
<0x4C>	0
<0x4D>	0
<0x4E>	0
<0x4F>	0
<0x50>	0
<0x51>	0
<0x52>	0
<0x53>	0
<0x54>	0
<0x55>	0
<0x56>	0
<0x57>	0
<0x58>	0
<0x59>	0
<0x5A>	0
<0x5B>	0
<0x5C>	0
<0x5D>	0
<0x5E>	0
<0x5F>	0
<0x60>	0
<0x61>	0
<0x62>	0
<0x63>	0
<0x64>	0
<0x65>	0
<0x66>	0
<0x67>	0
<0x68>	0
<0x69>	0
<0x6A>	0
<0x6B>	0
<0x6C>	0
<0x6D>	0
<0x6E>	0
<0x6F>	0
<0x70>	0
<0x71>	0
<0x72>	0
<0x73>	0
<0x74>	0
<0x75>	0
<0x76>	0
<0x77>	0
<0x78>	0
<0x79>	0
<0x7A>	0
<0x7B>	0
<0x7C>	0
<0x7D>	0
<0x7E>	0
<0x7F>	0
<0x80>	0
<0x81>	0
<0x82>	0
<0x83>	0
<0x84>	0
<0x85>	0
<0x86>	0
<0x87>	0
<0x88>	0
<0x89>	0
<0x8A>	0
<0x8B>	0
<0x8C>	0
<0x8D>	0
<0x8E>	0
<0x8F>	0
<0x90>	0
<0x91>	0
<0x92>	0
<0x93>	0
<0x94>	0
<0x95>	0
<0x96>	0
<0x97>	0
<0x98>	0
<0x99>	0
<0x9A>	0
<0x9B>	0
<0x9C>	0
<0x9D>	0
<0x9E>	0
<0x9F>	0
<0xA0>	0
<0xA1>	0
<0xA2>	0
<0xA3>	0
<0xA4>	0
<0xA5>	0
<0xA6>	0
<0xA7>	0
<0xA8>	0
<0xA9>	0
<0xAA>	0
<0xAB>	0
<0xAC>	0
<0xAD>	0
<0xAE>	0
<0xAF>	0
<0xB0>	0
<0xB1>	0
<0xB2>	0
<0xB3>	0
<0xB4>	0
<0xB5>	0
<0xB6>	0
<0xB7>	0
<0xB8>	0
<0xB9>	0
<0xBA>	0
<0xBB>	0
<0xBC>	0
<0xBD>	0
<0xBE>	0
<0xBF>	0
<0xC0>	0
<0xC1>	0
<0xC2>	0
<0xC3>	0
<0xC4>	0
<0xC5>	0
<0xC6>	0
<0xC7>	0
<0xC8>	0
<0xC9>	0
<0xCA>	0
<0xCB>	0
<0xCC>	0
<0xCD>	0
<0xCE>	0
<0xCF>	0
<0xD0>	0
<0xD1>	0
<0xD2>	0
<0xD3>	0
<0xD4>	0
<0xD5>	0
<0xD6>	0
<0xD7>	0
<0xD8>	0
<0xD9>	0
<0xDA>	0
<0xDB>	0
<0xDC>	0
<0xDD>	0
<0xDE>	0
<0xDF>	0
<0xE0>	0
<0xE1>	0
<0xE2>	0
<0xE3>	0
<0xE4>	0
<0xE5>	0
<0xE6>	0
<0xE7>	0
<0xE8>	0
<0xE9>	0
<0xEA>	0
<0xEB>	0
<0xEC>	0
<0xED>	0
<0xEE>	0
<0xEF>	0
<0xF0>	0
<0xF1>	0
<0xF2>	0
<0xF3>	0
<0xF4>	0
<0xF5>	0
<0xF6>	0
<0xF7>	0
<0xF8>	0
<0xF9>	0
<0xFA>	0
<0xFB>	0
<0xFC>	0
<0xFD>	0
<0xFE>	0
<0xFF>	0
்க	-0
்த	-1
▁म	-2
he	-3
▁t	-4
▁ह	-5
▁வ	-6
್ತ	-7
▁వ	-8
▁ನ	-9
in	-10
ன்	-11
ம்	-12
ள்	-13
▁क	-14
▁ब	-15
▁ಮ	-16
▁है	-17
oo	-18
ிற	-19
ది	-20
న్	-21
లు	-22
▁a	-23
▁ந	-24
▁ம	-25
▁ಬ	-26
க்க	-27
த்த	-28
న్న	-29
ತ್ತ	-30
is	-31
டு	-32
து	-33
ல்	-34
ాల	-35
్త	-36
ಗೆ	-37
▁T	-38
▁c	-39
▁க	-40
▁న	-41
▁ప	-42
▁మ	-43
ುತ್ತ	-44
er	-45
re	-46
ரி	-47
కు	-48
ను	-49
ಾನ	-50
ಿದ	-51
▁b	-52
▁o	-53
▁w	-54
▁ख	-55
▁र	-56
▁இ	-57
▁ச	-58
▁ப	-59
▁క	-60
ing	-61
ங்க	-62
ந்த	-63
ில்	-64
ంది	-65
స్త	-66
▁मै	-67
▁நா	-68
న్నా	-69
▁The	-70
ay	-71
mo	-72
ou	-73
se	-74
ता	-75
री	-76
हु	-77
़ा	-78
ान	-79
ें	-80
மா	-81
ரு	-82
வு	-83
ான	-84
ார	-85
ంట	-86
చే	-87
రు	-88
ల్	-89
ಂಬ	-90
ಕ್	-91
ತು	-92
ನೆ	-93
ನ್	-94
ರಿ	-95
ರೆ	-96
ಲ್	-97
್ದ	-98
▁I	-99
▁n	-100
▁प	-101
▁स	-102
▁அ	-103
▁த	-104
▁ఈ	-105
▁ఉ	-106
▁త	-107
▁ಸ	-108
ook	-109
ரிய	-110
▁is	-111
▁to	-112
▁रह	-113
க்கு	-114
ಿದ್ದ	-115
▁are	-116
▁the	-117
▁हैं	-118
ங்கள்	-119
ುತ್ತಿದ್ದ	-120
My	-121
at	-122
ck	-123
ed	-124
ex	-125
il	-126
le	-127
lo	-128
me	-129
ri	-130
यह	-131
िए	-132
्र	-133
ண்	-134
ப்	-135
று	-136
லை	-137
ளை	-138
ிக	-139
ெய	-140
కా	-141
చ్	-142
డి	-143
దయ	-144
పు	-145
ము	-146
మ్	-147
రై	-148
ాన	-149
ార	-150
ావ	-151
ిక	-152
ಂದ	-153
ಕೆ	-154
ಟ್	-155
ಪು	-156
ಯಾ	-157
ಲಿ	-158
ಲು	-159
ಳು	-160
ವಾ	-161
ವೆ	-162
ಿನ	-163
▁g	-164
▁h	-165
▁v	-166
▁अ	-167
▁आ	-168
▁எ	-169
▁అ	-170
▁చ	-171
▁స	-172
▁ಅ	-173
▁ಇ	-174
▁ಈ	-175
▁ಕ	-176
▁ದ	-177
▁ಹ	-178
day	-179
ery	-180
her	-181
his	-182
mor	-183
ड़ा	-184
ताब	-185
हुत	-186
ள்ள	-187
ேன்	-188
మ్మ	-189
ాలా	-190
ేను	-191
ಂಬಾ	-192
ನ್ನ	-193
ಪುಸ	-194
ಾನು	-195
ಾರೆ	-196
್ತಕ	-197
▁My	-198
▁on	-199
▁we	-200
▁कल	-201
▁कि	-202
▁यह	-203
▁நே	-204
▁பு	-205
▁மை	-206
▁కొ	-207
▁పు	-208
▁మై	-209
▁ತು	-210
▁ನಾ	-211
▁ಮು	-212
▁ಮೈ	-213
த்தக	-214
வும்	-215
ிறது	-216
ிறார	-217
ಲ್ಲಿ	-218
▁में	-219
▁मैं	-220
▁रहे	-221
▁மிக	-222
▁వచ్	-223
▁ಪುಸ	-224
స్తకా	-225
ున్నా	-226
▁book	-227
▁very	-228
▁बहुत	-229
▁இந்த	-230
▁நான்	-231
▁చాలా	-232
▁నేను	-233
▁ನಾನು	-234
த்தில்	-235
▁किताब	-236
▁ತುಂಬಾ	-237
க்கிறது	-238
▁புத்தக	-239
▁ಪುಸ್ತಕ	-240
▁மிகவும்	-241
▁పుస్తకా	-242
ಡುತ್ತಿದ್ದ	-243
ಡುತ್ತಿದ್ದಾರೆ	-244
Ch	-245
We	-246
ac	-247
ar	-248
bo	-249
ch	-250
ek	-251
en	-252
es	-253
et	-254
gh	-255
ig	-256
it	-257
ly	-258
nd	-259
ot	-260
ow	-261
pl	-262
ra	-263
ru	-264
su	-265
up	-266
ँग	-267
ँच	-268
ंद	-269
कू	-270
के	-271
खी	-272
गर	-273
गल	-274
घर	-275
चा	-276
चे	-277
च्	-278
जा	-279
जे	-280
झे	-281
ठी	-282
ते	-283
थो	-284
दर	-285
दी	-286
ना	-287
ने	-288
नौ	-289
पय	-290
फ़	-291
बह	-292
मय	-293
मा	-294
वा	-295
सम	-296
सू	-297
ाँ	-298
ीज	-299
ुल	-300
ेन	-301
ेल	-302
्म	-303
க்	-304
சூ	-305
ச்	-306
ஞ்	-307
ட்	-308
ணி	-309
ணீ	-310
தவ	-311
த்	-312
மை	-313
யா	-314
ரய	-315
ர்	-316
ற்	-317
ின	-318
ுழ	-319
ெல	-320
ைக	-321
ంచ	-322
ంల	-323
ఆడ	-324
గా	-325
చి	-326
చు	-327
జు	-328
ట్	-329
ఠశ	-330
ణం	-331
ద్	-332
మయ	-333
యం	-334
యి	-335
రే	-336
రో	-337
ళ్	-338
సి	-339
సూ	-340
ాత	-341
ుత	-342
ెం	-343
ెళ	-344
్ర	-345
ಂಟ	-346
ಂಡ	-347
ಕು	-348
ಗಿ	-349
ಗ್	-350
ಚಿ	-351
ಚ್	-352
ಟು	-353
ಡದ	-354
ಡು	-355
ಡ್	-356
ತೆ	-357
ದೆ	-358
ಪಾ	-359
ಮಯ	-360
ಮ್	-361
ಯವ	-362
ರು	-363
ರೈ	-364
ಲೆ	-365
ಳಿ	-366
ಳೆ	-367
ವು	-368
ಶಾ	-369
ಸಿ	-370
ಸೂ	-371
ೋಗ	-372
್ವ	-373
▁P	-374
▁d	-375
▁f	-376
▁l	-377
▁s	-378
▁y	-379
▁ट	-380
▁உ	-381
▁ஒ	-382
▁ఇ	-383
▁గ	-384
▁ಆ	-385
▁ಒ	-386
▁ಗ	-387
act	-388
ard	-389
ase	-390
clo	-391
dre	-392
eed	-393
ens	-394
est	-395
ext	-396
ght	-397
ill	-398
ime	-399
ine	-400
itt	-401
mot	-402
ome	-403
ood	-404
ool	-405
oor	-406
riv	-407
rou	-408
row	-409
ँगा	-410
ँची	-411
कूल	-412
केट	-413
गले	-414
चाह	-415
ज़ा	-416
ठीक	-417
दान	-418
पया	-419
फ़्	-420
लमा	-421
सूर	-422
ाना	-423
ानी	-424
ुझे	-425
ुबह	-426
ेरी	-427
ौसम	-428
्रि	-429
சம்	-430
செய	-431
டுக	-432
தவை	-433
தான	-434
ன்ப	-435
பமா	-436
மைய	-437
யவு	-438
ருவ	-439
லமா	-440
ானி	-441
ாலை	-442
ிரி	-443
ிறோ	-444
ிளை	-445
ீடு	-446
ூடு	-447
ெட்	-448
ெப்	-449
ேண்	-450
ொஞ்	-451
்து	-452
ంటల	-453
ంటు	-454
ంలో	-455
దది	-456
దయం	-457
దాన	-458
మార	-459
రణం	-460
రైన	-461
లలు	-462
ాకు	-463
ాఠశ	-464
ాను	-465
ారం	-466
ాలి	-467
ాలో	-468
ికి	-469
ికె	-470
ిది	-471
ిల్	-472
ీళ్	-473
ూయం	-474
ెద్	-475
ెరు	-476
ేడి	-477
ేము	-478
ಂಟೆ	-479
ಂಡೆ	-480
ಂತು	-481
ಂದು	-482
ಕಳು	-483
ಗಳು	-484
ಗಿದ	-485
ಟಿನ	-486
ಡದು	-487
ದಾನ	-488
ನಗೆ	-489
ಮಾನ	-490
ಮ್ಮ	-491
ಯವಿ	-492
ಯಾದ	-493
ರೆಯ	-494
ಲ್ಪ	-495
ವಾರ	-496
ಾಗಿ	-497
ಿನ್	-498
ಿಸಿ	-499
ೀರು	-500
ೆಳಿ	-501
ೇಕು	-502
ೇನೆ	-503
ೇವೆ	-504
ೊಡ್	-505
▁Ch	-506
▁We	-507
▁ar	-508
▁at	-509
▁ex	-510
▁go	-511
▁in	-512
▁op	-513
▁pl	-514
▁आऊ	-515
▁आज	-516
▁कृ	-517
▁गर	-518
▁घर	-519
▁जा	-520
▁थो	-521
▁दर	-522
▁नौ	-523
▁पर	-524
▁स्	-525
▁हम	-526
▁என	-527
▁பெ	-528
▁ரய	-529
▁வா	-530
▁ఆడ	-531
▁చే	-532
▁తొ	-533
▁దయ	-534
▁ని	-535
▁మా	-536
▁రే	-537
▁రై	-538
▁ಕೊ	-539
▁ಕ್	-540
▁ತೆ	-541
▁ಬರ	-542
▁ಮಾ	-543
▁ರೈ	-544
▁ಶಾ	-545
ater	-546
cket	-547
dren	-548
lose	-549
morn	-550
ouse	-551
rain	-552
suru	-553
upbo	-554
च्चे	-555
रीदी	-556
ीजिए	-557
ुलता	-558
▁	-559
்	-560
.	-561
e	-562
o	-563
க	-564
ు	-565
த	-566
ು	-567
್	-568
ு	-569
ా	-570
న	-571
ನ	-572
ೆ	-573
ி	-574
్	-575
r	-576
t	-577
i	-578
ह	-579
ి	-580
ा	-581
ತ	-582
ಾ	-583
ಿ	-584
ம	-585
ల	-586
h	-587
n	-588
ா	-589
ದ	-590
a	-591
म	-592
े	-593
र	-594
வ	-595
ం	-596
s	-597
ன	-598
ர	-599
మ	-600
।	-601
క	-602
l	-603
ै	-604
ள	-605
ద	-606
ర	-607
ಕ	-608
ಗ	-609
ಮ	-610
c	-611
क	-612
ब	-613
ी	-614
ந	-615
ை	-616
చ	-617
త	-618
వ	-619
ರ	-620
d	-621
y	-622
ं	-623
ய	-624
ற	-625
ல	-626
ಬ	-627
g	-628
ச	-629
ப	-630
స	-631
ే	-632
ಂ	-633
ಲ	-634
ವ	-635
न	-636
ल	-637
ప	-638
ಸ	-639
k	-640
u	-641
त	-642
ु	-643
्	-644
ட	-645
ெ	-646
ಡ	-647
T	-648
b	-649
m	-650
w	-651
ख	-652
ज	-653
स	-654
ि	-655
ே	-656
య	-657
ె	-658
ಟ	-659
ಯ	-660
च	-661
द	-662
प	-663
य	-664
़	-665
இ	-666
ங	-667
ண	-668
ట	-669
ై	-670
ో	-671
ಪ	-672
ಳ	-673
I	-674
p	-675
v	-676
ँ	-677
ग	-678
அ	-679
ఈ	-680
ఉ	-681
డ	-682
ొ	-683
ೇ	-684
ೈ	-685
M	-686
x	-687
अ	-688
आ	-689
ए	-690
ट	-691
ड	-692
ू	-693
ौ	-694
எ	-695
ீ	-696
ூ	-697
అ	-698
గ	-699
ళ	-700
ూ	-701
ಅ	-702
ಇ	-703
ಈ	-704
ಚ	-705
ಹ	-706
ೊ	-707
'	-708
C	-709
P	-710
W	-711
f	-712
ऊ	-713
घ	-714
झ	-715
ठ	-716
थ	-717
फ	-718
व	-719
ृ	-720
ो	-721
உ	-722
ஒ	-723
ஞ	-724
ழ	-725
ொ	-726
ோ	-727
ఆ	-728
ఇ	-729
జ	-730
ఠ	-731
ణ	-732
శ	-733
ీ	-734
ಆ	-735
ಒ	-736
ಶ	-737
ೀ	-738
ೂ	-739
ೋ	-740
